node {
  name: "CellSubgraphSpec"
  op: "Const"
  attr {
    key: "dtype"
    value {
      type: DT_STRING
    }
  }
  attr {
    key: "shape"
    value {
      shape {
        dim {
          size: 1
        }
      }
    }
  }
  attr {
    key: "value"
    value {
      tensor {
        dtype: DT_STRING
        tensor_shape {
          dim {
            size: 1
          }
        }
        string_val: "\n*\n\033fixed_channel_0_index_0_ids\022\tcell/id:0\030\001\022\027\n\006logits\022\rcell/lookup:0"
      }
    }
  }
}
node {
  name: "cell/id"
  op: "Placeholder"
  attr {
    key: "dtype"
    value {
      type: DT_INT32
    }
  }
  attr {
    key: "shape"
    value {
      shape {
        dim {
          size: 1
        }
      }
    }
  }
}
node {
  name: "cell/embedding_matrix"
  op: "Const"
  attr {
    key: "dtype"
    value {
      type: DT_FLOAT
    }
  }
  attr {
    key: "value"
    value {
      tensor {
        dtype: DT_FLOAT
        tensor_shape {
          dim {
            size: 123
          }
          dim {
            size: 1
          }
        }
        tensor_content: "\000\000\000\000\000\000\200?\000\000\000@\000\000@@\000\000\200@\000\000\240@\000\000\300@\000\000\340@\000\000\000A\000\000\020A\000\000 A\000\0000A\000\000@A\000\000PA\000\000`A\000\000pA\000\000\200A\000\000\210A\000\000\220A\000\000\230A\000\000\240A\000\000\250A\000\000\260A\000\000\270A\000\000\300A\000\000\310A\000\000\320A\000\000\330A\000\000\340A\000\000\350A\000\000\360A\000\000\370A\000\000\000B\000\000\004B\000\000\010B\000\000\014B\000\000\020B\000\000\024B\000\000\030B\000\000\034B\000\000 B\000\000$B\000\000(B\000\000,B\000\0000B\000\0004B\000\0008B\000\000<B\000\000@B\000\000DB\000\000HB\000\000LB\000\000PB\000\000TB\000\000XB\000\000\\B\000\000`B\000\000dB\000\000hB\000\000lB\000\000pB\000\000tB\000\000xB\000\000|B\000\000\200B\000\000\202B\000\000\204B\000\000\206B\000\000\210B\000\000\212B\000\000\214B\000\000\216B\000\000\220B\000\000\222B\000\000\224B\000\000\226B\000\000\230B\000\000\232B\000\000\234B\000\000\236B\000\000\240B\000\000\242B\000\000\244B\000\000\246B\000\000\250B\000\000\252B\000\000\254B\000\000\256B\000\000\260B\000\000\262B\000\000\264B\000\000\266B\000\000\270B\000\000\272B\000\000\274B\000\000\276B\000\000\300B\000\000\302B\000\000\304B\000\000\306B\000\000\310B\000\000\312B\000\000\314B\000\000\316B\000\000\320B\000\000\322B\000\000\324B\000\000\326B\000\000\330B\000\000\332B\000\000\334B\000\000\336B\000\000\340B\000\000\342B\000\000\344B\000\000\346B\000\000\350B\000\000\352B\000\000\354B\000\000\356B\000\000\360B\000\000\362B\000\000\364B"
      }
    }
  }
}
node {
  name: "cell/lookup"
  op: "Gather"
  input: "cell/embedding_matrix"
  input: "cell/id"
  attr {
    key: "Tindices"
    value {
      type: DT_INT32
    }
  }
  attr {
    key: "Tparams"
    value {
      type: DT_FLOAT
    }
  }
  attr {
    key: "validate_indices"
    value {
      b: true
    }
  }
}
